1FD
00B
02B
001
012
1FC
00E
02B
1F0
1B3
1EE
02F
00A
1E0
018
1D0
017
1E3
041
018
033
1F7
1FB
02A
02F
1F0
1FF
1CF
000
03B
025
023
1F6
03C
038
1FD
022
031
018
025
1D9
1A5
035
02D
1FA
1C8
00F
1DB
1F6
1EB
018
1EF
01D
02F
02A
040
01B
1F7
012
031
03D
1F2
033
1E4
1EE
010
012
033
1D9
02E
01B
1D3
033
1C2
1D9
1E3
1DD
1D4
1ED
034
00F
03B
044
001
1F2
1ED
028
1E9
1D2
1F4
1E8
1DD
1F5
026
1D6
1D9
010
1E9
038
007
014
02E
003
01E
000
1AC
002
1FE
1FF
1FE
02A
1EE
013
002
1D7
00A
05F
1E4
1BF
1F8
1D5
01F
1C7
036
1DB
01B
1D7
1DF
058
041
011
028
02C
032
031
000
030
1FE
009
1EA
1E5
002
1F9
012
1C5
1DF
1EB
1F0
00B
033
00F
030
023
009
1FD
00E
005
017
1FC
014
1E4
1F2
1F8
021
1DE
1FC
1E2
1CA
1F7
025
1D3
006
019
04F
1EA
02B
1BD
02C
038
016
1C0
1DB
026
1F5
1F6
1FB
01E
1D7
057
012
1DE
00E
1DE
018
1CD
1EE
038
1D4
1F2
1AA
006
018
017
005
01C
057
1EC
027
1BD
1F8
02F
030
1C1
00B
03E
042
032
060
1D4
1C4
02A
002
011
1F7
03A
1A8
001
009
013
012
1D0
025
02A
1D4
003
1D6
1C8
1F4
1E9
1FD
014
047
1ED
1CE
013
023
017
017
039
01A
1E5
02C
006
1E6
1FE
1D0
1EE
19D
020
1FD
00D
015
1F2
030
1C5
191
030
017
1D9
1C7
1FE
1E8
1F5
039
050
013
04B
1F6
1DD
1EA
1FE
1F5
014
1EB
1D2
014
1E4
1E8
067
1E7
027
1E8
1C2
028
001
01F
014
181
1D5
1F2
1CA
00F
049
006
1FE
1F1
1FE
001
04D
1F5
1F2
034
1C1
041
1CA
1F2
1DD
02B
00B
1EA
039
1DE
040
1FB
1CB
1F7
1CB
040
01C
1A9
009
020
032
007
00D
034
1E5
1DA
1E3
019
033
1EE
1D1
01C
009
1EA
1D9
1DC
039
001
00B
00A
1C1
02F
01D
1DA
008
026
1F9
007
1BF
1BD
010
1D8
016
1B2
03B
1E6
023
1F6
00B
1D4
04F
00A
01C
1FB
1CF
1EC
00E
006
003
1F3
1D2
1E5
1DE
00D
1F6
003
1C2
018
1D2
020
001
01D
1D3
003
1D3
1E5
032
1ED
005
008
1F1
1E0
025
012
1FE
026
1D0
1E2
1F8
016
02B
02B
020
002
1AD
02B
1F9
000
1E9
1DD
012
030
00F
1B9
004
015
01B
1EA
01C
02B
00B
040
1E7
01F
1EE
1F0
1FD
1E0
035
021
1C6
022
1E2
1DE
026
1C9
04C
014
02A
1ED
1C0
00B
030
01F
001
017
014
1D3
1F5
1DC
03D
1E2
1F4
00F
037
1F3
006
006
021
1F2
04F
1DC
1D4
033
041
1FC
017
025
01B
1C7
009
1CA
008
1E6
001
1CB
044
03C
1DD
1FE
1E3
04A
1EB
1F7
1AE
1EE
018
1D4
021
1E7
039
017
04A
1FF
1C9
004
020
02B
025
005
1D3
1D5
1E3
1FF
1EE
019
009
1EA
03B
1EC
004
014
1FC
01F
1C6
1F0
012
1F7
001
1E8
1E8
1CE
03F
055
056
1E0
1D8
023
1F4
002
1DB
01C
025
1EF
006
003
1E6
028
1D2
010
042
1E4
02A
1F1
1E3
012
1CD
02B
000
01C
00E
1DA
00F
1D4
1EF
032
042
1E4
1D3
025
043
01D
010
008
02F
1FB
01E
014
1ED
002
1D1
01D
02D
165
001
1EB
1E1
1EA
005
1D0
1CE
025
002
1DE
1CD
02F
049
036
058
04E
1D0
1F3
005
000
1FE
1E1
016
03A
1FE
014
1FD
01B
018
1E6
003
194
1DA
004
1D8
034
1ED
1DB
002
1FA
1FE
02E
1D7
1F4
050
05F
014
05B
1D7
1CC
01A
044
00C
004
057
1B8
02E
1CB
1DA
034
1D0
047
1CB
1BE
1E3
00A
026
00F
038
00A
051
1D8
005
1D2
043
1CF
1B6
1E3
1A5
1F2
1DF
1E5
017
1E5
1F5
000
020
1C4
000
00C
1EC
033
1E9
015
1D0
1F3
1D0
1CB
007
1AA
072
1DA
03D
040
1F2
02F
038
00D
1C5
1AF
1D4
002
1FD
022
1CE
1EE
1CA
1E6
1BA
048
01F
1C7
1CD
032
021
1E3
1E0
027
1EA
02F
1E1
1E6
050
1E8
1FF
01B
037
1FD
016
1E9
1F3
1ED
00B
1E5
004
005
029
1DE
1DC
1E4
1A6
07A
042
032
1EA
1F7
012
017
015
01E
1CE
01B
1F8
1A6
03E
1DE
022
032
1F9
1F5
00E
032
027
1E0
02D
1E8
002
011
1EF
1E8
1D8
008
1F5
028
00F
01F
002
01E
1CF
027
1C5
1D7
1F3
022
012
1F7
01E
001
1F5
02A
035
1D0
022
019
1FC
006
04F
1BF
1E5
01E
1C9
1CA
1DD
1DC
013
19B
035
1E7
1EB
012
00F
012
029
1E3
1DD
1D3
01A
1F1
1DE
1D9
1E4
1F8
1FB
009
008
1CE
1F7
1FF
05D
1E5
1CD
00F
050
03D
032
1EB
1E2
1CD
025
1E0
1FE
03F
01C
004
060
011
1E5
005
001
1FD
003
02E
1C0
1F4
015
1DA
1B9
01A
008
02D
030
1F8
1CE
1D3
026
02D
000
1FC
00E
025
02F
1D8
008
010
012
1ED
1FF
1A5
1D3
1E2
1FA
01E
1C7
1DA
00E
1E2
030
1FA
1DA
02B
01D
027
066
1F9
019
1DA
1E5
1F2
1E3
1E7
029
1F8
012
1FC
1DC
031
1CC
1E8
016
1FB
017
1FE
026
030
02C
1E4
1C6
1DF
1EA
027
1E0
1DE
1EB
010
055
1E3
1E0
027
1E3
03E
1E1
008
1BD
045
1F4
02E
02E
01D
023
01B
1D9
1E5
031
01D
02F
031
1F5
020
001
01B
1EB
026
1DF
02F
006
1F4
035
1F1
022
012
00A
00C
034
02F
06E
1C4
000
1EC
1D8
02E
1EE
006
1F9
019
026
006
014
1C1
058
1E7
03D
006
00F
02B
048
1D3
1F7
1BF
1C7
1ED
1F9
04E
03D
01C
1E1
1E3
001
1E5
023
018
028
036
1F2
019
1A3
00D
1EE
1CD
003
1BC
06F
1C9
010
024
01E
1D3
037
1CA
1FA
1AB
1E0
1E4
1F2
053
1D4
00C
011
1F9
186
002
018
1DE
009
012
1C6
013
1B8
04E
004
1D6
023
1E2
034
1E6
038
1F2
1CF
1E7
05D
008
00B
02A
1B8
03C
01C
03D
1FB
013
012
1FF
1CE
04A
1ED
1ED
003
01C
1F7
006
1BE
06F
015
1E0
01F
1BF
024
01C
02B
03A
016
1DB
012
01E
006
1CA
005
1CC
1FC
052
1F6
00D
1FE
1CC
1CE
058
050
1D1
1C9
1D6
02B
1D0
01D
028
1D7
011
1FD
1CB
023
1D9
1FC
030
03B
023
037
016
1E9
019
1FF
1F3
014
018
1F2
007
02B
019
007
1B7
1E4
013
1ED
1E9
1C5
1B8
03B
1DD
1E9
020
1E4
00F
1B8
003
1EA
007
02F
1EF
1B5
012
04B
01A
00D
1F3
1CA
1DA
058
1FD
1CA
029
1DD
1CA
012
1FE
015
1EF
02A
1FC
061
1EF
006
1FC
1F5
055
1C2
1D4
19C
00A
028
005
1D0
018
049
1F5
057
043
01D
1C6
010
011
02D
1E9
1CD
032
1EC
033
025
029
018
1E2
020
1C6
021
1EF
1CE
04B
004
1E5
1D6
1F4
02E
000
1C6
02F
001
05C
066
025
00F
1EB
040
1F7
010
1CE
1D9
010
1D1
1EF
01B
01E
1E1
013
1FA
1DA
01A
028
1F6
1E4
00E
1EE
1DE
1E9
00E
1DD
1B3
1EA
043
047
08B
082
1D3
1ED
1EE
1DA
012
1D7
1DA
008
013
1D7
1E9
1E5
012
009
1E5
044
1FC
1D1
1D8
1FD
010
1CE
01D
03D
1D9
1DA
023
1FF
023
029
1D8
005
018
027
01B
1E6
1DF
029
04A
1D4
014
012
030
032
1D8
048
1C5
1F7
01F
011
1E8
020
057
033
06F
022
1E8
1D7
00F
013
1D7
1B9
1B3
1B5
1DA
013
03F
03F
034
030
02C
1AB
046
026
006
014
00D
00F
1FF
027
1E7
002
1D0
1CB
006
02A
06D
029
1E0
1E5
071
1D7
003
1BF
1E9
1B5
1D9
03D
1D4
1E1
1F0
022
1E2
1E3
1FE
027
1E6
1D2
028
012
025
01E
1CE
1ED
007
1FB
001
1CD
00B
1FB
029
1D1
013
1EA
027
008
1E6
05F
019
008
028
1DA
006
031
194
087
1E6
1E2
031
036
012
1DD
1C5
06F
1CE
00E
1FC
022
00F
1DA
1CA
1EF
033
1C8
02A
02B
03B
1CC
1DE
000
010
036
000
02E
005
032
1A9
070
1E5
028
041
1E8
016
1A8
000
035
1E2
01F
033
1EF
000
1FE
002
1F8
043
1C7
1F3
1CD
01A
1FB
018
1C9
02B
1F5
022
01F
1DA
1F7
1F9
1AC
04D
1E8
1E9
1F2
01E
021
00A
1F0
00C
1E5
1DE
021
001
031
01A
039
021
02F
025
01D
1E4
049
03C
1FB
1FF
007
1E1
1FF
1E8
00B
1D6
185
1FC
1E1
00D
1D1
024
1FF
024
1F4
1D9
1EC
005
02E
015
1FA
1D1
03F
1F2
019
1B6
1DD
033
03A
052
068
023
1D2
01B
1F1
1FB
1E9
017
1F8
005
1EF
1CF
023
1FE
194
073
1C0
021
024
025
06D
19C
027
172
048
04D
021
18C
1F9
079
038
08F
08E
00A
1D6
05A
017
02E
00F
079
050
1F2
1D4
00E
04A
018
1BB
046
004
031
1DF
1E6
047
002
1E7
1F0
1EF
003
004
1B1
1D0
001
1F7
034
064
1E9
1F5
069
008
1EB
1D9
018
010
18E
01F
040
006
1EA
012
1E4
035
1E4
002
1F6
007
02D
004
03E
1E8
185
02F
02B
1D0
1C5
1AF
195
1C1
1F8
00A
02E
042
1E8
1F6
06D
01D
1E6
1F4
059
04A
00E
1E7
021
1D4
1E0
009
1FC
01B
043
013
00C
1B0
1B1
023
05A
1EB
022
1DF
1F6
1D2
02D
1D7
048
027
005
024
08C
1B6
1E5
1DE
044
1EB
02D
03E
1FF
1FE
1EC
1D3
1CB
1D5
048
02C
038
013
1ED
01D
059
1CF
009
1D7
18E
1E2
1C9
030
00F
033
1CF
013
1F1
1CF
1D5
1C8
025
1F9
1CC
003
1CB
066
1F8
1FA
1DC
042
1C2
1D4
034
1C7
1C9
024
01F
1F6
1E9
1E7
1DA
01C
00D
1ED
071
037
1D2
002
1A5
060
1FA
1F7
003
000
1DD
1F9
1D6
08A
1FC
1E4
1EE
039
1F9
1E9
027
003
1FB
009
020
1EF
1FB
1E4
1BB
1D2
025
010
1FE
1EC
002
1D9
14B
07B
019
01B
1E1
051
028
02C
00D
046
026
1D5
1F3
1EC
065
018
010
1EA
1B4
030
00C
016
019
1F8
1E9
17B
01B
039
1DB
040
001
1E6
1CF
037
003
010
1CC
1DB
1C5
025
1F2
01A
01F
006
023
1C8
02C
1F7
014
001
03E
1FF
01E
01F
02B
034
1CF
1F1
1F4
01E
024
01E
019
022
03F
134
05C
008
1A3
02C
1FE
044
1AB
01E
1EC
01C
02F
1CC
04D
1E2
028
044
1F4
1DC
020
1CB
00D
1F4
1AF
037
006
027
1AB
1AF
013
00A
027
198
03F
007
1D1
1D7
036
1B3
072
13C
1FE
1BF
1EC
1C5
195
035
15B
079
091
1D5
18E
1CB
07B
0B4
049
085
011
1E8
1FC
190
1C9
00C
01F
069
1C0
1F8
00E
00F
020
011
00A
1F4
1CD
000
1F0
012
1F5
1FC
021
007
1CA
1D8
1D1
1F9
1D2
1EC
1FC
1C9
009
016
05A
007
1F9
00F
058
069
17F
00D
049
038
00B
185
1D8
04D
1E9
1FD
017
09D
1BA
00C
1CA
1B5
1A7
1F8
1B9
1DA
064
1AC
1C3
1FD
1E7
173
0AC
06A
007
1F1
083
003
1B5
1C8
032
010
1E1
00C
1D3
1DD
004
000
1D2
039
1E4
1CE
02A
1EB
1DA
022
1F5
002
1E8
1C0
1AA
1CD
000
1D4
077
064
1EE
019
05F
1E1
016
1EF
00A
1EE
1D9
002
1D6
02C
031
029
004
01D
1E9
1DB
021
017
1C7
011
009
1EF
01E
004
1E6
1FF
00A
1F7
03C
02B
00F
1EA
00C
1D8
1D5
1F8
064
009
021
002
1D3
068
00D
1D4
1FD
065
00E
018
1DE
1B3
1DF
00A
1F4
1D2
034
1C7
1B4
032
1FA
1DD
024
038
1CB
1F9
1EC
1DB
1B6
1D4
021
04D
00B
00C
004
09B
010
01F
1D4
011
032
1F4
010
1C4
1EC
1D7
022
1FA
1D2
004
1A5
01F
02E
1C1
03D
031
019
1E7
16C
0A4
1FE
1DB
1F9
1F4
1FC
020
1E1
06E
00C
001
007
037
030
033
030
01C
00F
029
05A
00A
1F3
1EA
195
1F5
1E8
028
1F1
037
1D8
1E1
11F
072
07D
1D7
1A3
1F2
028
029
00B
017
034
1CD
1D1
193
05A
01E
1F3
06F
022
013
065
017
1C9
1F1
00D
041
01C
07B
17D
19B
1F2
1DB
19D
18C
0AD
1E7
185
18D
1D4
009
054
1B6
001
020
00F
1B4
1D2
012
1AE
083
082
00C
1C6
013
04B
08F
02A
069
1D3
1F8
19A
179
002
1CF
020
160
0C1
1F4
182
19D
007
1D3
088
156
1EA
007
033
198
1FF
1D2
1C9
095
09C
1D1
1C6
1F6
061
05D
067
097
1E8
1FD
17B
1C4
009
00B
020
032
1CA
006
002
048
1EA
1DC
023
199
008
014
1E5
075
1B5
1D8
19D
023
1E5
1C6
1C5
02E
059
04E
020
041
02D
1ED
039
02B
007
1E4
069
057
1B3
02C
00C
01E
1E1
1BE
006
16B
01A
1C8
1EC
052
1DF
1DC
1AF
1D6
004
1F9
1B3
1CC
01C
050
03C
003
01F
1CD
061
06C
1DA
00E
04B
010
1A1
018
04D
022
1C6
1D3
1F8
1FA
1CA
1DB
1F5
050
029
1D2
00A
1C4
1E3
1EC
022
028
1DA
1DA
1D0
00D
018
1E2
07A
045
02D
1CE
048
009
016
1CB
035
01B
002
1EF
00A
1F3
005
023
01D
027
1F2
1ED
1FC
01A
1BD
1CE
1DE
1F2
011
1FE
00F
1B9
00D
00B
031
051
006
1EF
078
1BB
1DC
020
014
059
01F
012
003
054
006
035
1EB
015
020
005
00A
1F2
1B9
1F0
1F7
007
02B
1E6
1AC
1BE
1E5
1F1
05A
024
033
00B
1F5
1EB
1F5
00B
05D
1EE
1D1
1D2
1E4
059
014
01E
021
070
019
1F5
04E
1FE
1C8
022
044
1E2
1ED
1D0
1AC
01C
1E9
1FB
06D
060
00B
1D2
1EB
1E6
1E3
028
1EF
01E
028
1F7
1D6
077
02C
1D9
1DA
01A
01F
1D0
067
1DE
1CF
003
02D
1EC
00D
1E6
18D
1D2
010
02F
04D
05D
028
013
157
070
040
02F
005
012
1E5
004
1F1
048
1D8
1DC
1D4
1C7
014
00C
1DD
027
015
02D
01C
00F
032
057
049
007
002
00F
1D3
1E6
003
1E3
1AB
039
027
1C8
1C4
1CA
1DB
180
039
1BD
1F5
1F3
1CB
008
1B5
1D6
153
001
05D
1F3
1AA
01B
040
0A1
068
077
1D5
1F2
023
1D5
1E7
01F
018
1A3
04B
1D0
1B5
1E5
02E
1D4
034
1E5
001
1FA
016
19E
004
033
1D8
06B
03E
02B
020
1CC
013
027
05B
077
1DC
1F3
1B9
1E0
1FF
1E4
04C
1C8
1EE
1D5
000
03F
019
1DA
1CE
038
1FF
1E6
1CF
00F
000
01A
1D5
020
1D9
1E8
00D
1F0
03A
1EE
1CD
012
025
1F3
1FB
000
029
02A
016
0A0
173
007
019
1F7
1D8
1C5
03F
1AE
021
00E
1CF
099
1D4
023
18E
1E8
004
011
1B1
1EF
04D
022
04F
067
013
1B5
073
076
029
015
035
033
1D5
1E8
037
03E
021
1EA
026
1F7
014
1ED
023
04E
00A
021
01B
1FC
003
1F6
020
1E8
00C
01D
1C3
1ED
1C7
00B
044
009
1F8
1DE
051
011
1DD
1E5
019
1FA
1F1
1F6
044
1F8
1E7
1FB
1F9
02C
1CD
1CA
1EE
015
1D2
1F9
017
1ED
030
019
013
1E7
00F
1F1
04A
020
1C9
010
043
1E2
00D
1DB
00A
04B
1CA
1E6
034
04F
00B
02D
015
02D
024
1D9
028
00E
1C0
013
1E7
1DF
1EC
027
1E2
00C
002
004
06A
043
1EB
1F3
1F7
18A
009
1E5
04A
008
1F9
1F3
1EB
05E
1D8
013
01D
048
007
000
026
1DF
1DC
02A
01B
009
038
011
1BE
1D6
013
1C7
069
027
011
1DB
1A3
1F3
1E6
016
008
038
027
1F1
016
071
1EB
1FB
1E2
1DF
1EA
014
1DF
009
005
1DB
1D5
1E3
02B
1F3
02B
025
009
1E7
1EE
040
1D4
1F4
13E
063
031
02F
1C3
1EA
00B
1F6
036
041
018
1D4
1D2
00A
1C6
011
1BC
026
04D
007
000
029
003
033
051
048
007
020
1DB
1EF
1DA
1EA
18F
04B
058
00E
1F2
1C0
01B
1C8
08E
1DA
026
012
1ED
1CA
190
1E3
197
084
07C
00C
187
1CF
053
096
04C
085
1E8
00E
00E
1C1
031
000
189
1D4
012
1E9
1A9
003
1F8
1E9
048
188
027
1F6
013
1E8
1F8
1EA
1AE
074
068
024
1DE
1D4
039
049
025
09B
1F3
02E
1E0
1E5
02F
1E6
1EE
009
019
02E
1F7
017
1FC
1D4
023
1DE
01E
029
1ED
1CB
1E8
00B
1CB
057
042
00C
03C
01E
01C
040
043
021
019
03A
1E0
1DA
1D1
1E3
1C1
0A2
1AC
1FB
05B
04B
1ED
1CD
1FA
1D8
01F
024
1F2
043
1D2
033
1DE
1B7
1FB
1F7
00F
033
04C
1ED
1EA
1FE
025
1A5
066
016
1DE
001
045
033
004
1D3
1F6
024
1E1
1F1
001
003
1E0
1EC
002
1F9
03C
1C9
1E4
1F7
010
00F
04C
004
1EE
1CE
1D3
00A
015
1D0
04F
02B
1E1
02A
058
000
1C5
01D
034
04C
1C6
1ED
00F
1ED
014
1F6
006
03A
021
02F
1EF
1CD
1E6
01D
029
1DF
024
00C
01B
1D8
00B
1ED
079
046
1CA
003
00B
1F7
004
01A
042
02E
020
023
1EB
009
1E8
1E4
1FF
1F3
1E2
031
00E
00F
1C7
1FC
00E
1D1
011
1C6
1C7
1F6
000
014
058
055
1DC
02A
021
1C4
005
01F
01F
026
00D
041
1C3
034
012
1FE
001
01F
02A
1D9
1FE
013
1F2
1D2
00D
001
1C1
1BD
015
1F4
1F4
1FA
1EC
029
1CB
006
1D4
1FB
027
028
025
00F
1D1
021
1FE
028
1DA
1D1
1DD
1F9
1FA
000
03F
03F
1FA
1E6
050
1D5
1F6
02A
1C6
1F4
1E7
03B
1DD
00F
1E0
01D
1DA
1F7
028
022
1E9
1D5
1E7
00D
006
048
02E
1D5
014
1B5
02C
1D7
019
04F
02C
1D7
00C
000
1C2
014
03D
004
014
1FF
1BD
1E3
01C
1EF
1D3
000
049
1F5
1DA
019
00A
04D
1F8
029
1D1
1F0
1DB
1CD
044
1F5
02D
014
01F
1D2
047
1F9
011
04E
015
018
014
05A
1ED
1C9
02C
016
1D7
1BA
07B
009
18E
1F9
025
01C
1F9
1F7
1D4
02E
1DE
1B9
07C
1D6
01E
049
038
01D
04C
1EB
1BF
027
1D8
01A
007
078
18F
1C6
02F
1E0
1C6
002
074
1F4
1D8
00A
002
051
1DA
04E
1FD
1DB
029
173
075
1F9
068
046
059
02C
09F
1D3
1E4
1DF
1FE
1FF
1F7
042
166
1BB
033
02A
16E
008
01B
1DC
018
039
02F
06C
179
065
1E6
1FD
033
1BD
063
1F3
096
1D8
1B0
014
097
026
1D2
1A5
179
1C2
1D8
03A
1C3
1F5
1DA
007

